{
  "version": "1.0",
  "truncation": null,
  "padding": null,
  "added_tokens": [
    {
      "id": 0,
      "content": "[PAD]",
      "single_word": false,
      "lstrip": false,
      "rstrip": false,
      "normalized": false,
      "special": true
    },
    {
      "id": 1,
      "content": "[BOS]",
      "single_word": false,
      "lstrip": false,
      "rstrip": false,
      "normalized": false,
      "special": true
    },
    {
      "id": 2,
      "content": "[EOS]",
      "single_word": false,
      "lstrip": false,
      "rstrip": false,
      "normalized": false,
      "special": true
    },
    {
      "id": 3,
      "content": "[UNK]",
      "single_word": false,
      "lstrip": false,
      "rstrip": false,
      "normalized": false,
      "special": true
    }
  ],
  "normalizer": {
    "type": "Sequence",
    "normalizers": [
      {
        "type": "Lowercase"
      }
    ]
  },
  "pre_tokenizer": null,
  "post_processor": null,
  "decoder": {
    "type": "BPEDecoder",
    "suffix": "</w>"
  },
  "model": {
    "type": "BPE",
    "dropout": null,
    "unk_token": "[UNK]",
    "continuing_subword_prefix": null,
    "end_of_word_suffix": null,
    "fuse_unk": false,
    "byte_fallback": false,
    "ignore_merges": false,
    "vocab": {
      "[PAD]": 0,
      "[BOS]": 1,
      "[EOS]": 2,
      "[UNK]": 3,
      " ": 4,
      "a": 5,
      "b": 6,
      "c": 7,
      "d": 8,
      "e": 9,
      "f": 10,
      "g": 11,
      "h": 12,
      "i": 13,
      "k": 14,
      "l": 15,
      "m": 16,
      "n": 17,
      "o": 18,
      "p": 19,
      "r": 20,
      "s": 21,
      "t": 22,
      "v": 23,
      "x": 24,
      "y": 25,
      "z": 26,
      "õ": 27,
      "ú": 28,
      "а": 29,
      "б": 30,
      "в": 31,
      "г": 32,
      "д": 33,
      "е": 34,
      "ж": 35,
      "з": 36,
      "и": 37,
      "й": 38,
      "к": 39,
      "л": 40,
      "м": 41,
      "н": 42,
      "о": 43,
      "п": 44,
      "р": 45,
      "с": 46,
      "т": 47,
      "у": 48,
      "ф": 49,
      "х": 50,
      "ц": 51,
      "ч": 52,
      "ш": 53,
      "ы": 54,
      "ь": 55,
      "э": 56,
      "ю": 57,
      "я": 58,
      "ё": 59,
      "і": 60,
      "ў": 61,
      "а ": 62,
      "і ": 63,
      "ра": 64,
      "на": 65,
      " п": 66,
      "ка": 67,
      "ва": 68,
      "я ": 69,
      "ы ": 70,
      "та": 71,
      "е ": 72,
      "ць": 73,
      "ад": 74,
      "у ": 75,
      "ры": 76,
      "ць ": 77,
      "ў ": 78,
      "на ": 79,
      "ас": 80,
      "м ": 81,
      "х ": 82,
      "ны": 83,
      "ль": 84,
      "й ": 85,
      "ма": 86,
      "о ": 87,
      "дз": 88,
      "ні": 89,
      "вы": 90,
      "не": 91,
      "цц": 92,
      "па": 93,
      "да": 94,
      "лі": 95,
      "ро": 96,
      "нн": 97,
      " па": 98,
      "ле": 99,
      "цца ": 100,
      "за": 101,
      "ме": 102,
      "ве": 103,
      "ст": 104,
      "кі": 105,
      "лі ": 106,
      "кі ": 107,
      "ты": 108,
      "рэ": 109,
      "са": 110,
      "мо": 111,
      "ны ": 112,
      "ко": 113,
      "ча": 114,
      "чы": 115,
      "шт": 116,
      "сц": 117,
      "з ": 118,
      "ля": 119,
      "га": 120,
      "к ": 121,
      "цы": 122,
      "ла": 123,
      "га ": 124,
      "ві": 125,
      "бы": 126,
      "што ": 127,
      "ін": 128,
      "гэ": 129,
      " пра": 130,
      "мі ": 131,
      "ста": 132,
      "но": 133,
      "пра": 134,
      "аб": 135,
      "хо": 136,
      "вя": 137,
      "ю ": 138,
      "тэ": 139,
      "не ": 140,
      "то": 141,
      "мі": 142,
      "зна": 143,
      "во": 144,
      "пе": 145,
      "ня": 146,
      "бо": 147,
      "та ": 148,
      "час": 149,
      "ба": 150,
      "ку": 151,
      "ла ": 152,
      "ту": 153,
      "ру": 154,
      "ных ": 155,
      "т ": 156,
      "ўс": 157,
      "ну": 158,
      "ада": 159,
      "дзе": 160,
      "го": 161,
      "ныя ": 162,
      "го ": 163,
      "н ": 164,
      "да ": 165,
      "су": 166,
      "жа": 167,
      "най ": 168,
      "ло": 169,
      "шы": 170,
      "жы": 171,
      "юць ": 172,
      "ды": 173,
      "бу": 174,
      "ва ": 175,
      "ння ": 176,
      "ры ": 177,
      "ецца ": 178,
      "ку ": 179,
      "ля ": 180,
      "гу": 181,
      "ска": 182,
      " пры": 183,
      "гі": 184,
      "лю": 185,
      "кра": 186,
      " пе": 187,
      "сі": 188,
      "до": 189,
      "ці ": 190,
      "ка ": 191,
      "вы ": 192,
      "ся": 193,
      "по": 194,
      "сці ": 195,
      "бі": 196,
      "ха": 197,
      "ад ": 198,
      "дзя": 199,
      "тра": 200,
      "які": 201,
      "нне ": 202,
      "ця": 203,
      "лас": 204,
      "мож": 205,
      "яў": 206,
      "ра ": 207,
      "чы ": 208,
      "раз": 209,
      "ным ": 210,
      "чэ": 211,
      "дзі": 212,
      "мя": 213,
      "калі ": 214,
      "ша": 215,
      "бе": 216,
      "ма ": 217,
      "фа": 218,
      "д ": 219,
      "за ": 220,
      "нага ": 221,
      "пад": 222,
      "гэта ": 223,
      "пры": 224,
      "му ": 225,
      "ву": 226,
      "кан": 227,
      "се": 228,
      "це ": 229,
      "с ": 230,
      "боль": 231,
      "ш ": 232,
      "адз": 233,
      "тры": 234,
      "як ": 235,
      "фі": 236,
      "яўля": 237,
      "для ": 238,
      " пера": 239,
      "сць ": 240,
      "гэта": 241,
      "пі": 242,
      "гра": 243,
      "ся ": 244,
      "ўва": 245,
      "ння": 246,
      "тым ": 247,
      "ты ": 248,
      "дзе ": 249,
      "каб": 250,
      "юцца ": 251,
      "ду": 252,
      "р ": 253,
      "кл": 254,
      "таго ": 255,
      "мы": 256,
      "це": 257,
      "нава": 258,
      "лькі ": 259,
      "ні ": 260,
      "ца": 261,
      "мен": 262,
      "спа": 263,
      "іх ": 264,
      "лу": 265,
      "эн": 266,
      "ная ": 267,
      "нні ": 268,
      "ці": 269,
      "цы ": 270,
      "ге": 271,
      "бя": 272,
      " пад": 273,
      "цыі ": 274,
      "му": 275,
      "мы ": 276,
      "месц": 277,
      "сто": 278,
      "спе": 279,
      "кры": 280,
      "зі": 281,
      "пас": 282,
      "роз": 283,
      "джа": 284,
      "ды ": 285,
      "яго ": 286,
      "ваць ": 287,
      "нека": 288,
      "ён ": 289,
      "адна": 290,
      "стра": 291,
      "знахо": 292,
      "якія ": 293,
      "скі": 294,
      "вер": 295,
      "зяўля": 296,
      "ўні": 297,
      "сва": 298,
      "можна ": 299,
      "каб ": 300,
      "ле ": 301,
      "лё": 302,
      " пас": 303,
      "вед": 304,
      "ту ": 305,
      "яны ": 306,
      "лы": 307,
      "род": 308,
      "веда": 309,
      "цыя": 310,
      "былі ": 311,
      " па ": 312,
      "так": 313,
      "маг": 314,
      "нне": 315,
      "трэ": 316,
      "яка": 317,
      "ль ": 318,
      "можа ": 319,
      "трыма": 320,
      "пу": 321,
      "іншы": 322,
      "дэ": 323,
      "л ": 324,
      "па ": 325,
      "дна ": 326,
      "вялі": 327,
      "ар": 328,
      "шчэ": 329,
      "кары": 330,
      "пера": 331,
      "кты": 332,
      "фе": 333,
      "каў ": 334,
      "ор": 335,
      "най": 336,
      "мас": 337,
      "вяр": 338,
      "нь": 339,
      "ліся ": 340,
      "сама ": 341,
      "могу": 342,
      "або ": 343,
      "ё ": 344,
      "сту": 345,
      "бо ": 346,
      "там ": 347,
      "краі": 348,
      "што": 349,
      "ін ": 350,
      "больш ": 351,
      "толькі ": 352,
      "аў": 353,
      "час ": 354,
      "г ": 355,
      "вай ": 356,
      "чыць ": 357,
      "дас": 358,
      "мпа": 359,
      "нымі ": 360,
      "зяўляецца ": 361,
      "рма": 362,
      "таму ": 363,
      "цый": 364,
      "ўся ": 365,
      "мя ": 366,
      "сп": 367,
      "све": 368,
      "ў па": 369,
      "насці ": 370,
      "сты": 371,
      "таксама ": 372,
      "рыя": 373,
      "ючы ": 374,
      "атрыма": 375,
      "так ": 376,
      "могуць ": 377,
      "але ": 378,
      "ўз": 379,
      "рава": 380,
      "ках ": 381,
      "аль": 382,
      "шэ": 383,
      "які ": 384,
      "яко": 385,
      "торы": 386,
      "таў ": 387,
      "тэр": 388,
      "вё": 389,
      "об": 390,
      "част": 391,
      "ху": 392,
      "цэ": 393,
      "ман": 394,
      "цца": 395,
      "ную ": 396,
      "выя ": 397,
      "трэб": 398,
      "наз": 399,
      "насць ": 400,
      "яна ": 401,
      "яшчэ": 402,
      "нае ": 403,
      "скай ": 404,
      "ж ": 405,
      "ўле": 406,
      "кія ": 407,
      "ве ": 408,
      "кай ": 409,
      "ваюць ": 410,
      "коль": 411,
      "лася ": 412,
      "магчы": 413,
      "акра": 414,
      "ло ": 415,
      "тава": 416,
      "рож": 417,
      "бяспе": 418,
      "знаходзі": 419,
      "акрамя ": 420,
      "лы ": 421,
      "уз": 422,
      "іс": 423,
      "нам ": 424,
      "кана": 425,
      "кава": 426,
      "была ": 427,
      "тур": 428,
      "ўра": 429,
      " пада": 430,
      "кара": 431,
      "адно": 432,
      "гле": 433,
      "пада": 434,
      "наву": 435,
      "аднак ": 436,
      "звы": 437,
      " по": 438,
      "ных": 439,
      "ніі ": 440,
      "больш": 441,
      "бра": 442,
      "зас": 443,
      "шма": 444,
      "вых ": 445,
      " пер": 446,
      "некаторы": 447,
      "дж": 448,
      "со": 449,
      "ран": 450,
      "адпа": 451,
      "дава": 452,
      "мер": 453,
      "стэ": 454,
      "гэтага ": 455,
      "бле": 456,
      "зе": 457,
      "рэд": 458,
      "пя": 459,
      "цэн": 460,
      "чнай ": 461,
      "нах ": 462,
      "лан": 463,
      "гуль": 464,
      "тро": 465,
      "важ": 466,
      "дзі ": 467,
      "выпад": 468,
      "людзе": 469,
      "гу ": 470,
      "ду ": 471,
      "жа ": 472,
      "ўна": 473,
      " пра ": 474,
      "льмі ": 475,
      "выні": 476,
      "вельмі ": 477,
      "кіх ": 478,
      "знача": 479,
      "яшчэ ": 480,
      "колька": 481,
      "звыча": 482,
      "яе ": 483,
      "ў у ": 484,
      "чым ": 485,
      "сці": 486,
      "кую ": 487,
      "акрамя таго ": 488,
      "гі ": 489,
      "я па": 490,
      "туры": 491,
      "эў": 492,
      "ян": 493,
      "вай": 494,
      "самы": 495,
      "дзячы ": 496,
      "зва": 497,
      "мно": 498,
      "пла": 499,
      "спра": 500,
      "ць па": 501,
      "ць у ": 502,
      "на па": 503,
      "дапа": 504,
      "тэле": 505,
      "зо": 506,
      "зя": 507,
      "цт": 508,
      "чва": 509,
      "ў і ": 510,
      "ней": 511,
      "сабо": 512,
      "годна ": 513,
      "гад": 514,
      "дн": 515,
      "дру": 516,
      "зу": 517,
      "м па": 518,
      "то ": 519,
      "чу": 520,
      " пры ": 521,
      "ніка": 522,
      "выкары": 523,
      "цца ў ": 524,
      "ўсё ": 525,
      "звычай": 526,
      "са ": 527,
      "тко": 528,
      "кампа": 529,
      "роў": 530,
      "лаве": 531,
      "было ": 532,
      "тое ": 533,
      "цяг": 534,
      "ннем ": 535,
      "рыі ": 536,
      "жывё": 537,
      "якіх ": 538,
      "хут": 539,
      "ша ": 540,
      "сан": 541,
      "гані": 542,
      "вядо": 543,
      "той ": 544,
      "месца ": 545,
      "гада": 546,
      "зда": 547,
      "кта": 548,
      "клю": 549,
      "пы": 550,
      "сло": 551,
      "шу": 552,
      "як": 553,
      "наль": 554,
      "адбы": 555,
      "кон": 556,
      "што ў ": 557,
      "адзін ": 558,
      "нават ": 559,
      "бе ": 560,
      "цо": 561,
      "чалаве": 562,
      "быць ": 563,
      "скіх ": 564,
      "дзячы на ": 565,
      "блі": 566,
      "гля": 567,
      "фо": 568,
      "хі": 569,
      "эк": 570,
      "выда": 571,
      "быў ": 572,
      "нягле": 573,
      "гора": 574,
      "шай ": 575,
      "клад": 576,
      "шмат ": 577,
      "ке": 578,
      "ткі ": 579,
      "чна ": 580,
      "шы ": 581,
      "ства ": 582,
      "цыя ": 583,
      "цяга": 584,
      "адзе": 585,
      "аргані": 586,
      "нь ": 587,
      "людзей ": 588,
      "нягледзячы на ": 589,
      "ус": 590,
      "ч ": 591,
      "ім ": 592,
      "рас": 593,
      "неаб": 594,
      "гэты": 595,
      "ход": 596,
      "вор": 597,
      "нэ": 598,
      "каза": 599,
      "льні": 600,
      "мае ": 601,
      "бава": 602,
      "супра": 603,
      "бы ": 604,
      "згада": 605,
      "чных ": 606,
      "шко": 607,
      "іх": 608,
      "наў ": 609,
      "сцю ": 610,
      " прабле": 611,
      "куль": 612,
      "мясц": 613,
      "ведам": 614,
      "многі": 615,
      "згодна ": 616,
      "клі": 617,
      "ваецца ": 618,
      "мар": 619,
      "стан": 620,
      "нуе ": 621,
      "ары": 622,
      "гас": 623,
      "йсці ": 624,
      "рабі": 625,
      " пла": 626,
      "кага ": 627,
      "вам ": 628,
      "мале": 629,
      "ней ": 630,
      "леп": 631,
      "рэн": 632,
      "рэгі": 633,
      "доў": 634,
      "зза ": 635,
      "кру": 636,
      "ца ": 637,
      "шо": 638,
      "ь ": 639,
      "кам ": 640,
      "тама": 641,
      "чаць ": 642,
      "дыі ": 643,
      "будзе ": 644,
      "разу": 645,
      "дапамо": 646,
      "еце ": 647,
      "жэ": 648,
      "свя": 649,
      "вання ": 650,
      "куючы ": 651,
      "людзі ": 652,
      "фарма": 653,
      "гэтай ": 654,
      "клада": 655,
      "большас": 656,
      "сабой ": 657,
      "мясцо": 658,
      "б ": 659,
      "е па": 660,
      "ру ": 661,
      "фран": 662,
      "зай": 663,
      "коў ": 664,
      " прагра": 665,
      "клад ": 666,
      "месца": 667,
      "цу": 668,
      "шча": 669,
      "ён": 670,
      "ўп": 671,
      "ны па": 672,
      "зая": 673,
      "міні": 674,
      "лоў": 675,
      "без ": 676,
      "стоўва": 677,
      "некалькі ": 678,
      "альбо ": 679,
      "выкарыстоўва": 680,
      "цягам ": 681,
      "дэн": 682,
      "зе ": 683,
      "лад": 684,
      "ме ": 685,
      "ёй ": 686,
      "вар": 687,
      "асаб": 688,
      "асоб": 689,
      "нер": 690,
      "даво": 691,
      "ліва": 692,
      "рост": 693,
      "гара": 694,
      "інтэр": 695,
      "гэтым ": 696,
      "ноў": 697,
      "пер": 698,
      "буду": 699,
      "дзякуючы ": 700,
      "якая ": 701,
      "трэба ": 702,
      "знаходзіцца ": 703,
      "нса": 704,
      "ўля": 705,
      "ўно": 706,
      "кар": 707,
      "каман": 708,
      " праві": 709,
      "вод": 710,
      "назы": 711,
      "адпавед": 712,
      "мэ": 713,
      "ху ": 714,
      "чныя ": 715,
      "пара": 716,
      "род ": 717,
      "водзі": 718,
      "сут": 719,
      "калі вы ": 720,
      "знаходзя": 721,
      " пасля ": 722,
      "іншых ": 723,
      "ступ": 724,
      "гру": 725,
      "здо": 726,
      "слу": 727,
      "тва": 728,
      "навед": 729,
      "ць пра": 730,
      "ляр": 731,
      "мі і ": 732,
      "шым ": 733,
      "менш ": 734,
      "спар": 735,
      "пасля ": 736,
      "ан": 737,
      "аф": 738,
      "зша ": 739,
      "пры ": 740,
      "кож": 741,
      "ган": 742,
      "галоў": 743,
      "жыцц": 744,
      "будз": 745,
      "скія ": 746,
      "магчымас": 747,
      "выніку ": 748,
      "зям": 749,
      "днё": 750,
      "мін": 751,
      "у па": 752,
      "напры": 753,
      "кая ": 754,
      "вас ": 755,
      "маюць ": 756,
      "не па": 757,
      "рэй": 758,
      "ходна ": 759,
      "часо": 760,
      "аўтама": 761,
      "некаторыя ": 762,
      "неабходна ": 763,
      "інтэрнэ": 764,
      "здоль": 765,
      "аўтамабі": 766,
      "ата": 767,
      "фор": 768,
      "ц ": 769,
      "нале": 770,
      "ванне ": 771,
      "ныя": 772,
      "выра": 773,
      "кім ": 774,
      "чыцца ": 775,
      "стано": 776,
      "праў": 777,
      "маглі ": 778,
      "іншыя ": 779,
      " падарож": 780,
      "ама": 781,
      "апо": 782,
      "дада": 783,
      "жы ": 784,
      "зні": 785,
      "клас": 786,
      "лю ": 787,
      "чным ": 788,
      " пэў": 789,
      "ць у": 790,
      "ць на ": 791,
      "ў на": 792,
      "вым ": 793,
      "між": 794,
      "вой": 795,
      "жыць ": 796,
      "пор": 797,
      "нняў ": 798,
      "розныя ": 799,
      "карыста": 800,
      "якой ": 801,
      "гадо": 802,
      "ву ": 803,
      "мп": 804,
      "сле": 805,
      "чны ": 806,
      "шта": 807,
      "эле": 808,
      "япо": 809,
      "ўяўля": 810,
      "ўднё": 811,
      "ват": 812,
      "вае ": 813,
      "адроз": 814,
      "тых ": 815,
      "сама": 816,
      "ны і ": 817,
      "лагі": 818,
      "аба": 819,
      "дзей": 820,
      "сусве": 821,
      "сістэ": 822,
      "трабава": 823,
      "чэння ": 824,
      "адзі": 825,
      "фіна": 826,
      "навуко": 827,
      "некаторых ": 828,
      "малень": 829,
      "склада": 830,
      "ун": 831,
      "чнага ": 832,
      "энер": 833,
      "ёсць ": 834,
      "і па": 835,
      "м і ": 836,
      "чын": 837,
      "вяз": 838,
      "сказа": 839,
      "скага ": 840,
      "тран": 841,
      "цяж": 842,
      "цеся ": 843,
      "месцы ": 844,
      "краіны ": 845,
      "атрымаць ": 846,
      "кампані": 847,
      "нягледзячы на тое ": 848,
      "разуме": 849,
      "зы": 850,
      "ну ": 851,
      "п ": 852,
      "пад ": 853,
      "скі ": 854,
      "сла": 855,
      "цё": 856,
      "а таксама ": 857,
      "рак": 858,
      "раё": 859,
      "я і ": 860,
      "рых": 861,
      "нік ": 862,
      "непа": 863,
      "нны ": 864,
      "вера": 865,
      "інфарма": 866,
      " праз ": 867,
      "год": 868,
      "жыха": 869,
      "сябе ": 870,
      "разві": 871,
      "ктыў": 872,
      "выпадку ": 873,
      "колькасць ": 874,
      "арганіза": 875,
      "рэгіё": 876,
      "фінанса": 877,
      "грэ": 878,
      "ен": 879,
      "сы": 880,
      "х па": 881,
      "эр": 882,
      "накі": 883,
      "народ": 884,
      "тай ": 885,
      "тагра": 886,
      "рыкан": 887,
      "мага": 888,
      "даў": 889,
      "кі і ": 890,
      " прапа": 891,
      "часта ": 892,
      "бачыць ": 893,
      "тут ": 894,
      "гор": 895,
      "лод": 896,
      "трым": 897,
      "існуе ": 898,
      "звычайна ": 899,
      "напрыклад ": 900,
      "сусвет": 901,
      "азнача": 902,
      "два ": 903,
      "ем": 904,
      "змя": 905,
      "кла": 906,
      "хва": 907,
      "чо": 908,
      "раза": 909,
      "распа": 910,
      "наві": 911,
      "камі": 912,
      "вах ": 913,
      "талі": 914,
      "адкры": 915,
      "на по": 916,
      "чынам ": 917,
      "цыю ": 918,
      "між ": 919,
      "гісто": 920,
      "чэнне ": 921,
      "ген": 922,
      "цыяналь": 923,
      "рэдка ": 924,
      "ведамле": 925,
      "займа": 926,
      "даволі ": 927,
      "амаль ": 928,
      "апош": 929,
      "дста": 930,
      "жо": 931,
      "з па": 932,
      "зво": 933,
      "сё": 934,
      "сць": 935,
      "тру": 936,
      "чная ": 937,
      "раў ": 938,
      "рам ": 939,
      "у на": 940,
      "у выніку ": 941,
      "ць што ": 942,
      "ў на ": 943,
      "на з": 944,
      "высо": 945,
      "сты ": 946,
      "лі ў ": 947,
      "моц": 948,
      "мовы ": 949,
      "стара": 950,
      "або": 951,
      "ходзя": 952,
      "тэн": 953,
      "тэрыя": 954,
      "дзень ": 955,
      "піса": 956,
      "цей ": 957,
      "верх": 958,
      "карале": 959,
      "большасці ": 960,
      "міжнарод": 961,
      "ез": 962,
      "кле": 963,
      "пра ": 964,
      "чле": 965,
      "я п": 966,
      "ім": 967,
      "і пра": 968,
      "назі": 969,
      "вая ": 970,
      "вага ": 971,
      "рыя ": 972,
      "м з ": 973,
      "ніча": 974,
      "мер ": 975,
      "ства": 976,
      "сапраў": 977,
      "чына": 978,
      "ўсё": 979,
      "ўсіх ": 980,
      "пуляр": 981,
      "дасле": 982,
      "пярэ": 983,
      "ландыі ": 984,
      "цтва ": 985,
      "супраць ": 986,
      "будуць ": 987,
      "назіра": 988,
      "аві": 989,
      "жо ": 990,
      "лу ": 991,
      "нг ": 992,
      "су ": 993,
      "скую ": 994,
      "тку ": 995,
      "раль": 996,
      " прэ": 997,
      "камі ": 998,
      "такія ": 999
    },
    "merges": [
      [
        "а",
        " "
      ],
      [
        "і",
        " "
      ],
      [
        "р",
        "а"
      ],
      [
        "н",
        "а"
      ],
      [
        " ",
        "п"
      ],
      [
        "к",
        "а"
      ],
      [
        "в",
        "а"
      ],
      [
        "я",
        " "
      ],
      [
        "ы",
        " "
      ],
      [
        "т",
        "а"
      ],
      [
        "е",
        " "
      ],
      [
        "ц",
        "ь"
      ],
      [
        "а",
        "д"
      ],
      [
        "у",
        " "
      ],
      [
        "р",
        "ы"
      ],
      [
        "ць",
        " "
      ],
      [
        "ў",
        " "
      ],
      [
        "н",
        "а "
      ],
      [
        "а",
        "с"
      ],
      [
        "м",
        " "
      ],
      [
        "х",
        " "
      ],
      [
        "н",
        "ы"
      ],
      [
        "л",
        "ь"
      ],
      [
        "й",
        " "
      ],
      [
        "м",
        "а"
      ],
      [
        "о",
        " "
      ],
      [
        "д",
        "з"
      ],
      [
        "н",
        "і"
      ],
      [
        "в",
        "ы"
      ],
      [
        "н",
        "е"
      ],
      [
        "ц",
        "ц"
      ],
      [
        "п",
        "а"
      ],
      [
        "д",
        "а"
      ],
      [
        "л",
        "і"
      ],
      [
        "р",
        "о"
      ],
      [
        "н",
        "н"
      ],
      [
        " п",
        "а"
      ],
      [
        "л",
        "е"
      ],
      [
        "цц",
        "а "
      ],
      [
        "з",
        "а"
      ],
      [
        "м",
        "е"
      ],
      [
        "в",
        "е"
      ],
      [
        "с",
        "т"
      ],
      [
        "к",
        "і"
      ],
      [
        "л",
        "і "
      ],
      [
        "к",
        "і "
      ],
      [
        "т",
        "ы"
      ],
      [
        "р",
        "э"
      ],
      [
        "с",
        "а"
      ],
      [
        "м",
        "о"
      ],
      [
        "н",
        "ы "
      ],
      [
        "к",
        "о"
      ],
      [
        "ч",
        "а"
      ],
      [
        "ч",
        "ы"
      ],
      [
        "ш",
        "т"
      ],
      [
        "с",
        "ц"
      ],
      [
        "з",
        " "
      ],
      [
        "л",
        "я"
      ],
      [
        "г",
        "а"
      ],
      [
        "к",
        " "
      ],
      [
        "ц",
        "ы"
      ],
      [
        "л",
        "а"
      ],
      [
        "г",
        "а "
      ],
      [
        "в",
        "і"
      ],
      [
        "б",
        "ы"
      ],
      [
        "шт",
        "о "
      ],
      [
        "і",
        "н"
      ],
      [
        "г",
        "э"
      ],
      [
        " п",
        "ра"
      ],
      [
        "м",
        "і "
      ],
      [
        "с",
        "та"
      ],
      [
        "н",
        "о"
      ],
      [
        "п",
        "ра"
      ],
      [
        "а",
        "б"
      ],
      [
        "х",
        "о"
      ],
      [
        "в",
        "я"
      ],
      [
        "ю",
        " "
      ],
      [
        "т",
        "э"
      ],
      [
        "н",
        "е "
      ],
      [
        "т",
        "о"
      ],
      [
        "м",
        "і"
      ],
      [
        "з",
        "на"
      ],
      [
        "в",
        "о"
      ],
      [
        "п",
        "е"
      ],
      [
        "н",
        "я"
      ],
      [
        "б",
        "о"
      ],
      [
        "т",
        "а "
      ],
      [
        "ч",
        "ас"
      ],
      [
        "б",
        "а"
      ],
      [
        "к",
        "у"
      ],
      [
        "л",
        "а "
      ],
      [
        "т",
        "у"
      ],
      [
        "р",
        "у"
      ],
      [
        "ны",
        "х "
      ],
      [
        "т",
        " "
      ],
      [
        "ў",
        "с"
      ],
      [
        "н",
        "у"
      ],
      [
        "ад",
        "а"
      ],
      [
        "дз",
        "е"
      ],
      [
        "г",
        "о"
      ],
      [
        "ны",
        "я "
      ],
      [
        "г",
        "о "
      ],
      [
        "н",
        " "
      ],
      [
        "д",
        "а "
      ],
      [
        "с",
        "у"
      ],
      [
        "ж",
        "а"
      ],
      [
        "на",
        "й "
      ],
      [
        "л",
        "о"
      ],
      [
        "ш",
        "ы"
      ],
      [
        "ж",
        "ы"
      ],
      [
        "ю",
        "ць "
      ],
      [
        "д",
        "ы"
      ],
      [
        "б",
        "у"
      ],
      [
        "в",
        "а "
      ],
      [
        "нн",
        "я "
      ],
      [
        "р",
        "ы "
      ],
      [
        "е",
        "цца "
      ],
      [
        "к",
        "у "
      ],
      [
        "л",
        "я "
      ],
      [
        "г",
        "у"
      ],
      [
        "с",
        "ка"
      ],
      [
        " п",
        "ры"
      ],
      [
        "г",
        "і"
      ],
      [
        "л",
        "ю"
      ],
      [
        "к",
        "ра"
      ],
      [
        " п",
        "е"
      ],
      [
        "с",
        "і"
      ],
      [
        "д",
        "о"
      ],
      [
        "ц",
        "і "
      ],
      [
        "к",
        "а "
      ],
      [
        "в",
        "ы "
      ],
      [
        "с",
        "я"
      ],
      [
        "п",
        "о"
      ],
      [
        "сц",
        "і "
      ],
      [
        "б",
        "і"
      ],
      [
        "х",
        "а"
      ],
      [
        "ад",
        " "
      ],
      [
        "дз",
        "я"
      ],
      [
        "т",
        "ра"
      ],
      [
        "я",
        "кі"
      ],
      [
        "нн",
        "е "
      ],
      [
        "ц",
        "я"
      ],
      [
        "л",
        "ас"
      ],
      [
        "мо",
        "ж"
      ],
      [
        "я",
        "ў"
      ],
      [
        "р",
        "а "
      ],
      [
        "ч",
        "ы "
      ],
      [
        "ра",
        "з"
      ],
      [
        "ны",
        "м "
      ],
      [
        "ч",
        "э"
      ],
      [
        "дз",
        "і"
      ],
      [
        "м",
        "я"
      ],
      [
        "ка",
        "лі "
      ],
      [
        "ш",
        "а"
      ],
      [
        "б",
        "е"
      ],
      [
        "м",
        "а "
      ],
      [
        "ф",
        "а"
      ],
      [
        "д",
        " "
      ],
      [
        "з",
        "а "
      ],
      [
        "на",
        "га "
      ],
      [
        "п",
        "ад"
      ],
      [
        "гэ",
        "та "
      ],
      [
        "п",
        "ры"
      ],
      [
        "м",
        "у "
      ],
      [
        "в",
        "у"
      ],
      [
        "ка",
        "н"
      ],
      [
        "с",
        "е"
      ],
      [
        "ц",
        "е "
      ],
      [
        "с",
        " "
      ],
      [
        "бо",
        "ль"
      ],
      [
        "ш",
        " "
      ],
      [
        "ад",
        "з"
      ],
      [
        "т",
        "ры"
      ],
      [
        "я",
        "к "
      ],
      [
        "ф",
        "і"
      ],
      [
        "яў",
        "ля"
      ],
      [
        "д",
        "ля "
      ],
      [
        " пе",
        "ра"
      ],
      [
        "с",
        "ць "
      ],
      [
        "гэ",
        "та"
      ],
      [
        "п",
        "і"
      ],
      [
        "г",
        "ра"
      ],
      [
        "с",
        "я "
      ],
      [
        "ў",
        "ва"
      ],
      [
        "нн",
        "я"
      ],
      [
        "ты",
        "м "
      ],
      [
        "т",
        "ы "
      ],
      [
        "дз",
        "е "
      ],
      [
        "ка",
        "б"
      ],
      [
        "ю",
        "цца "
      ],
      [
        "д",
        "у"
      ],
      [
        "р",
        " "
      ],
      [
        "к",
        "л"
      ],
      [
        "та",
        "го "
      ],
      [
        "м",
        "ы"
      ],
      [
        "ц",
        "е"
      ],
      [
        "на",
        "ва"
      ],
      [
        "ль",
        "кі "
      ],
      [
        "н",
        "і "
      ],
      [
        "ц",
        "а"
      ],
      [
        "ме",
        "н"
      ],
      [
        "с",
        "па"
      ],
      [
        "і",
        "х "
      ],
      [
        "л",
        "у"
      ],
      [
        "э",
        "н"
      ],
      [
        "на",
        "я "
      ],
      [
        "нн",
        "і "
      ],
      [
        "ц",
        "і"
      ],
      [
        "ц",
        "ы "
      ],
      [
        "г",
        "е"
      ],
      [
        "б",
        "я"
      ],
      [
        " п",
        "ад"
      ],
      [
        "цы",
        "і "
      ],
      [
        "м",
        "у"
      ],
      [
        "м",
        "ы "
      ],
      [
        "ме",
        "сц"
      ],
      [
        "ст",
        "о"
      ],
      [
        "с",
        "пе"
      ],
      [
        "к",
        "ры"
      ],
      [
        "з",
        "і"
      ],
      [
        "п",
        "ас"
      ],
      [
        "ро",
        "з"
      ],
      [
        "д",
        "жа"
      ],
      [
        "д",
        "ы "
      ],
      [
        "я",
        "го "
      ],
      [
        "ва",
        "ць "
      ],
      [
        "не",
        "ка"
      ],
      [
        "ё",
        "н "
      ],
      [
        "ад",
        "на"
      ],
      [
        "ст",
        "ра"
      ],
      [
        "зна",
        "хо"
      ],
      [
        "які",
        "я "
      ],
      [
        "с",
        "кі"
      ],
      [
        "ве",
        "р"
      ],
      [
        "з",
        "яўля"
      ],
      [
        "ў",
        "ні"
      ],
      [
        "с",
        "ва"
      ],
      [
        "мож",
        "на "
      ],
      [
        "каб",
        " "
      ],
      [
        "л",
        "е "
      ],
      [
        "л",
        "ё"
      ],
      [
        " п",
        "ас"
      ],
      [
        "ве",
        "д"
      ],
      [
        "т",
        "у "
      ],
      [
        "я",
        "ны "
      ],
      [
        "л",
        "ы"
      ],
      [
        "ро",
        "д"
      ],
      [
        "ве",
        "да"
      ],
      [
        "цы",
        "я"
      ],
      [
        "бы",
        "лі "
      ],
      [
        " п",
        "а "
      ],
      [
        "та",
        "к"
      ],
      [
        "ма",
        "г"
      ],
      [
        "н",
        "не"
      ],
      [
        "т",
        "рэ"
      ],
      [
        "я",
        "ка"
      ],
      [
        "ль",
        " "
      ],
      [
        "мож",
        "а "
      ],
      [
        "тры",
        "ма"
      ],
      [
        "п",
        "у"
      ],
      [
        "ін",
        "шы"
      ],
      [
        "д",
        "э"
      ],
      [
        "л",
        " "
      ],
      [
        "п",
        "а "
      ],
      [
        "д",
        "на "
      ],
      [
        "вя",
        "лі"
      ],
      [
        "а",
        "р"
      ],
      [
        "ш",
        "чэ"
      ],
      [
        "ка",
        "ры"
      ],
      [
        "пе",
        "ра"
      ],
      [
        "к",
        "ты"
      ],
      [
        "ф",
        "е"
      ],
      [
        "ка",
        "ў "
      ],
      [
        "о",
        "р"
      ],
      [
        "на",
        "й"
      ],
      [
        "м",
        "ас"
      ],
      [
        "вя",
        "р"
      ],
      [
        "н",
        "ь"
      ],
      [
        "лі",
        "ся "
      ],
      [
        "са",
        "ма "
      ],
      [
        "мо",
        "гу"
      ],
      [
        "аб",
        "о "
      ],
      [
        "ё",
        " "
      ],
      [
        "ст",
        "у"
      ],
      [
        "б",
        "о "
      ],
      [
        "та",
        "м "
      ],
      [
        "кра",
        "і"
      ],
      [
        "шт",
        "о"
      ],
      [
        "ін",
        " "
      ],
      [
        "боль",
        "ш "
      ],
      [
        "то",
        "лькі "
      ],
      [
        "а",
        "ў"
      ],
      [
        "час",
        " "
      ],
      [
        "г",
        " "
      ],
      [
        "ва",
        "й "
      ],
      [
        "чы",
        "ць "
      ],
      [
        "д",
        "ас"
      ],
      [
        "м",
        "па"
      ],
      [
        "ны",
        "мі "
      ],
      [
        "зяўля",
        "ецца "
      ],
      [
        "р",
        "ма"
      ],
      [
        "та",
        "му "
      ],
      [
        "цы",
        "й"
      ],
      [
        "ўс",
        "я "
      ],
      [
        "м",
        "я "
      ],
      [
        "с",
        "п"
      ],
      [
        "с",
        "ве"
      ],
      [
        "ў",
        " па"
      ],
      [
        "на",
        "сці "
      ],
      [
        "ст",
        "ы"
      ],
      [
        "так",
        "сама "
      ],
      [
        "ры",
        "я"
      ],
      [
        "ю",
        "чы "
      ],
      [
        "а",
        "трыма"
      ],
      [
        "та",
        "к "
      ],
      [
        "могу",
        "ць "
      ],
      [
        "а",
        "ле "
      ],
      [
        "ў",
        "з"
      ],
      [
        "ра",
        "ва"
      ],
      [
        "ка",
        "х "
      ],
      [
        "а",
        "ль"
      ],
      [
        "ш",
        "э"
      ],
      [
        "я",
        "кі "
      ],
      [
        "я",
        "ко"
      ],
      [
        "то",
        "ры"
      ],
      [
        "та",
        "ў "
      ],
      [
        "тэ",
        "р"
      ],
      [
        "в",
        "ё"
      ],
      [
        "о",
        "б"
      ],
      [
        "час",
        "т"
      ],
      [
        "х",
        "у"
      ],
      [
        "ц",
        "э"
      ],
      [
        "ма",
        "н"
      ],
      [
        "цц",
        "а"
      ],
      [
        "ну",
        "ю "
      ],
      [
        "вы",
        "я "
      ],
      [
        "трэ",
        "б"
      ],
      [
        "на",
        "з"
      ],
      [
        "на",
        "сць "
      ],
      [
        "я",
        "на "
      ],
      [
        "я",
        "шчэ"
      ],
      [
        "на",
        "е "
      ],
      [
        "ска",
        "й "
      ],
      [
        "ж",
        " "
      ],
      [
        "ў",
        "ле"
      ],
      [
        "кі",
        "я "
      ],
      [
        "в",
        "е "
      ],
      [
        "ка",
        "й "
      ],
      [
        "ва",
        "юць "
      ],
      [
        "ко",
        "ль"
      ],
      [
        "лас",
        "я "
      ],
      [
        "маг",
        "чы"
      ],
      [
        "а",
        "кра"
      ],
      [
        "л",
        "о "
      ],
      [
        "та",
        "ва"
      ],
      [
        "ро",
        "ж"
      ],
      [
        "бя",
        "спе"
      ],
      [
        "знахо",
        "дзі"
      ],
      [
        "акра",
        "мя "
      ],
      [
        "л",
        "ы "
      ],
      [
        "у",
        "з"
      ],
      [
        "і",
        "с"
      ],
      [
        "на",
        "м "
      ],
      [
        "ка",
        "на"
      ],
      [
        "ка",
        "ва"
      ],
      [
        "бы",
        "ла "
      ],
      [
        "ту",
        "р"
      ],
      [
        "ў",
        "ра"
      ],
      [
        " п",
        "ада"
      ],
      [
        "ка",
        "ра"
      ],
      [
        "ад",
        "но"
      ],
      [
        "г",
        "ле"
      ],
      [
        "п",
        "ада"
      ],
      [
        "на",
        "ву"
      ],
      [
        "адна",
        "к "
      ],
      [
        "з",
        "вы"
      ],
      [
        " п",
        "о"
      ],
      [
        "ны",
        "х"
      ],
      [
        "ні",
        "і "
      ],
      [
        "боль",
        "ш"
      ],
      [
        "б",
        "ра"
      ],
      [
        "з",
        "ас"
      ],
      [
        "ш",
        "ма"
      ],
      [
        "вы",
        "х "
      ],
      [
        " пе",
        "р"
      ],
      [
        "нека",
        "торы"
      ],
      [
        "д",
        "ж"
      ],
      [
        "с",
        "о"
      ],
      [
        "ра",
        "н"
      ],
      [
        "ад",
        "па"
      ],
      [
        "да",
        "ва"
      ],
      [
        "ме",
        "р"
      ],
      [
        "ст",
        "э"
      ],
      [
        "гэта",
        "га "
      ],
      [
        "б",
        "ле"
      ],
      [
        "з",
        "е"
      ],
      [
        "рэ",
        "д"
      ],
      [
        "п",
        "я"
      ],
      [
        "ц",
        "эн"
      ],
      [
        "ч",
        "най "
      ],
      [
        "на",
        "х "
      ],
      [
        "ла",
        "н"
      ],
      [
        "гу",
        "ль"
      ],
      [
        "т",
        "ро"
      ],
      [
        "ва",
        "ж"
      ],
      [
        "дз",
        "і "
      ],
      [
        "вы",
        "пад"
      ],
      [
        "лю",
        "дзе"
      ],
      [
        "г",
        "у "
      ],
      [
        "д",
        "у "
      ],
      [
        "ж",
        "а "
      ],
      [
        "ў",
        "на"
      ],
      [
        " п",
        "ра "
      ],
      [
        "ль",
        "мі "
      ],
      [
        "вы",
        "ні"
      ],
      [
        "ве",
        "льмі "
      ],
      [
        "кі",
        "х "
      ],
      [
        "зна",
        "ча"
      ],
      [
        "яшчэ",
        " "
      ],
      [
        "коль",
        "ка"
      ],
      [
        "звы",
        "ча"
      ],
      [
        "я",
        "е "
      ],
      [
        "ў ",
        "у "
      ],
      [
        "чы",
        "м "
      ],
      [
        "сц",
        "і"
      ],
      [
        "ку",
        "ю "
      ],
      [
        "акрамя ",
        "таго "
      ],
      [
        "г",
        "і "
      ],
      [
        "я",
        " па"
      ],
      [
        "ту",
        "ры"
      ],
      [
        "э",
        "ў"
      ],
      [
        "я",
        "н"
      ],
      [
        "ва",
        "й"
      ],
      [
        "са",
        "мы"
      ],
      [
        "дзя",
        "чы "
      ],
      [
        "з",
        "ва"
      ],
      [
        "м",
        "но"
      ],
      [
        "п",
        "ла"
      ],
      [
        "с",
        "пра"
      ],
      [
        "ць",
        " па"
      ],
      [
        "ць ",
        "у "
      ],
      [
        "на ",
        "па"
      ],
      [
        "да",
        "па"
      ],
      [
        "тэ",
        "ле"
      ],
      [
        "з",
        "о"
      ],
      [
        "з",
        "я"
      ],
      [
        "ц",
        "т"
      ],
      [
        "ч",
        "ва"
      ],
      [
        "ў ",
        "і "
      ],
      [
        "не",
        "й"
      ],
      [
        "са",
        "бо"
      ],
      [
        "го",
        "дна "
      ],
      [
        "г",
        "ад"
      ],
      [
        "д",
        "н"
      ],
      [
        "д",
        "ру"
      ],
      [
        "з",
        "у"
      ],
      [
        "м",
        " па"
      ],
      [
        "т",
        "о "
      ],
      [
        "ч",
        "у"
      ],
      [
        " п",
        "ры "
      ],
      [
        "ні",
        "ка"
      ],
      [
        "вы",
        "кары"
      ],
      [
        "цца ",
        "ў "
      ],
      [
        "ўс",
        "ё "
      ],
      [
        "звыча",
        "й"
      ],
      [
        "с",
        "а "
      ],
      [
        "т",
        "ко"
      ],
      [
        "ка",
        "мпа"
      ],
      [
        "ро",
        "ў"
      ],
      [
        "ла",
        "ве"
      ],
      [
        "бы",
        "ло "
      ],
      [
        "то",
        "е "
      ],
      [
        "ця",
        "г"
      ],
      [
        "нне",
        "м "
      ],
      [
        "ры",
        "і "
      ],
      [
        "жы",
        "вё"
      ],
      [
        "які",
        "х "
      ],
      [
        "ху",
        "т"
      ],
      [
        "ш",
        "а "
      ],
      [
        "са",
        "н"
      ],
      [
        "га",
        "ні"
      ],
      [
        "вя",
        "до"
      ],
      [
        "то",
        "й "
      ],
      [
        "месц",
        "а "
      ],
      [
        "г",
        "ада"
      ],
      [
        "з",
        "да"
      ],
      [
        "к",
        "та"
      ],
      [
        "к",
        "лю"
      ],
      [
        "п",
        "ы"
      ],
      [
        "с",
        "ло"
      ],
      [
        "ш",
        "у"
      ],
      [
        "я",
        "к"
      ],
      [
        "на",
        "ль"
      ],
      [
        "ад",
        "бы"
      ],
      [
        "ко",
        "н"
      ],
      [
        "што ",
        "ў "
      ],
      [
        "адз",
        "ін "
      ],
      [
        "нава",
        "т "
      ],
      [
        "б",
        "е "
      ],
      [
        "ц",
        "о"
      ],
      [
        "ча",
        "лаве"
      ],
      [
        "бы",
        "ць "
      ],
      [
        "скі",
        "х "
      ],
      [
        "дзячы ",
        "на "
      ],
      [
        "б",
        "лі"
      ],
      [
        "г",
        "ля"
      ],
      [
        "ф",
        "о"
      ],
      [
        "х",
        "і"
      ],
      [
        "э",
        "к"
      ],
      [
        "вы",
        "да"
      ],
      [
        "бы",
        "ў "
      ],
      [
        "ня",
        "гле"
      ],
      [
        "го",
        "ра"
      ],
      [
        "ша",
        "й "
      ],
      [
        "кл",
        "ад"
      ],
      [
        "шма",
        "т "
      ],
      [
        "к",
        "е"
      ],
      [
        "т",
        "кі "
      ],
      [
        "ч",
        "на "
      ],
      [
        "ш",
        "ы "
      ],
      [
        "ст",
        "ва "
      ],
      [
        "цы",
        "я "
      ],
      [
        "ця",
        "га"
      ],
      [
        "адз",
        "е"
      ],
      [
        "ар",
        "гані"
      ],
      [
        "нь",
        " "
      ],
      [
        "людзе",
        "й "
      ],
      [
        "нягле",
        "дзячы на "
      ],
      [
        "у",
        "с"
      ],
      [
        "ч",
        " "
      ],
      [
        "і",
        "м "
      ],
      [
        "ра",
        "с"
      ],
      [
        "не",
        "аб"
      ],
      [
        "гэ",
        "ты"
      ],
      [
        "хо",
        "д"
      ],
      [
        "во",
        "р"
      ],
      [
        "н",
        "э"
      ],
      [
        "ка",
        "за"
      ],
      [
        "ль",
        "ні"
      ],
      [
        "ма",
        "е "
      ],
      [
        "ба",
        "ва"
      ],
      [
        "су",
        "пра"
      ],
      [
        "б",
        "ы "
      ],
      [
        "з",
        "гада"
      ],
      [
        "ч",
        "ных "
      ],
      [
        "ш",
        "ко"
      ],
      [
        "і",
        "х"
      ],
      [
        "на",
        "ў "
      ],
      [
        "сц",
        "ю "
      ],
      [
        " пра",
        "бле"
      ],
      [
        "ку",
        "ль"
      ],
      [
        "мя",
        "сц"
      ],
      [
        "веда",
        "м"
      ],
      [
        "мно",
        "гі"
      ],
      [
        "з",
        "годна "
      ],
      [
        "к",
        "лі"
      ],
      [
        "ва",
        "ецца "
      ],
      [
        "ма",
        "р"
      ],
      [
        "ста",
        "н"
      ],
      [
        "ну",
        "е "
      ],
      [
        "а",
        "ры"
      ],
      [
        "г",
        "ас"
      ],
      [
        "й",
        "сці "
      ],
      [
        "ра",
        "бі"
      ],
      [
        " п",
        "ла"
      ],
      [
        "ка",
        "га "
      ],
      [
        "ва",
        "м "
      ],
      [
        "ма",
        "ле"
      ],
      [
        "не",
        "й "
      ],
      [
        "ле",
        "п"
      ],
      [
        "рэ",
        "н"
      ],
      [
        "рэ",
        "гі"
      ],
      [
        "до",
        "ў"
      ],
      [
        "з",
        "за "
      ],
      [
        "к",
        "ру"
      ],
      [
        "ц",
        "а "
      ],
      [
        "ш",
        "о"
      ],
      [
        "ь",
        " "
      ],
      [
        "ка",
        "м "
      ],
      [
        "та",
        "ма"
      ],
      [
        "ча",
        "ць "
      ],
      [
        "ды",
        "і "
      ],
      [
        "бу",
        "дзе "
      ],
      [
        "раз",
        "у"
      ],
      [
        "дапа",
        "мо"
      ],
      [
        "е",
        "це "
      ],
      [
        "ж",
        "э"
      ],
      [
        "с",
        "вя"
      ],
      [
        "ва",
        "ння "
      ],
      [
        "ку",
        "ючы "
      ],
      [
        "лю",
        "дзі "
      ],
      [
        "фа",
        "рма"
      ],
      [
        "гэта",
        "й "
      ],
      [
        "кл",
        "ада"
      ],
      [
        "больш",
        "ас"
      ],
      [
        "сабо",
        "й "
      ],
      [
        "мясц",
        "о"
      ],
      [
        "б",
        " "
      ],
      [
        "е",
        " па"
      ],
      [
        "р",
        "у "
      ],
      [
        "ф",
        "ран"
      ],
      [
        "за",
        "й"
      ],
      [
        "ко",
        "ў "
      ],
      [
        " пра",
        "гра"
      ],
      [
        "кл",
        "ад "
      ],
      [
        "месц",
        "а"
      ],
      [
        "ц",
        "у"
      ],
      [
        "ш",
        "ча"
      ],
      [
        "ё",
        "н"
      ],
      [
        "ў",
        "п"
      ],
      [
        "ны",
        " па"
      ],
      [
        "за",
        "я"
      ],
      [
        "мі",
        "ні"
      ],
      [
        "ло",
        "ў"
      ],
      [
        "бе",
        "з "
      ],
      [
        "сто",
        "ўва"
      ],
      [
        "нека",
        "лькі "
      ],
      [
        "аль",
        "бо "
      ],
      [
        "выкары",
        "стоўва"
      ],
      [
        "цяга",
        "м "
      ],
      [
        "д",
        "эн"
      ],
      [
        "з",
        "е "
      ],
      [
        "л",
        "ад"
      ],
      [
        "м",
        "е "
      ],
      [
        "ё",
        "й "
      ],
      [
        "ва",
        "р"
      ],
      [
        "ас",
        "аб"
      ],
      [
        "ас",
        "об"
      ],
      [
        "не",
        "р"
      ],
      [
        "да",
        "во"
      ],
      [
        "лі",
        "ва"
      ],
      [
        "ро",
        "ст"
      ],
      [
        "га",
        "ра"
      ],
      [
        "ін",
        "тэр"
      ],
      [
        "гэ",
        "тым "
      ],
      [
        "но",
        "ў"
      ],
      [
        "пе",
        "р"
      ],
      [
        "бу",
        "ду"
      ],
      [
        "дзя",
        "куючы "
      ],
      [
        "яка",
        "я "
      ],
      [
        "трэб",
        "а "
      ],
      [
        "знаходзі",
        "цца "
      ],
      [
        "н",
        "са"
      ],
      [
        "ў",
        "ля"
      ],
      [
        "ў",
        "но"
      ],
      [
        "ка",
        "р"
      ],
      [
        "ка",
        "ман"
      ],
      [
        " пра",
        "ві"
      ],
      [
        "во",
        "д"
      ],
      [
        "наз",
        "ы"
      ],
      [
        "адпа",
        "вед"
      ],
      [
        "м",
        "э"
      ],
      [
        "х",
        "у "
      ],
      [
        "ч",
        "ныя "
      ],
      [
        "па",
        "ра"
      ],
      [
        "ро",
        "д "
      ],
      [
        "во",
        "дзі"
      ],
      [
        "су",
        "т"
      ],
      [
        "калі ",
        "вы "
      ],
      [
        "знахо",
        "дзя"
      ],
      [
        " пас",
        "ля "
      ],
      [
        "іншы",
        "х "
      ],
      [
        "сту",
        "п"
      ],
      [
        "г",
        "ру"
      ],
      [
        "з",
        "до"
      ],
      [
        "с",
        "лу"
      ],
      [
        "т",
        "ва"
      ],
      [
        "на",
        "вед"
      ],
      [
        "ць",
        " пра"
      ],
      [
        "ля",
        "р"
      ],
      [
        "мі ",
        "і "
      ],
      [
        "шы",
        "м "
      ],
      [
        "мен",
        "ш "
      ],
      [
        "спа",
        "р"
      ],
      [
        "пас",
        "ля "
      ],
      [
        "а",
        "н"
      ],
      [
        "а",
        "ф"
      ],
      [
        "з",
        "ша "
      ],
      [
        "п",
        "ры "
      ],
      [
        "ко",
        "ж"
      ],
      [
        "га",
        "н"
      ],
      [
        "га",
        "лоў"
      ],
      [
        "жы",
        "цц"
      ],
      [
        "бу",
        "дз"
      ],
      [
        "скі",
        "я "
      ],
      [
        "магчы",
        "мас"
      ],
      [
        "выні",
        "ку "
      ],
      [
        "зя",
        "м"
      ],
      [
        "дн",
        "ё"
      ],
      [
        "м",
        "ін"
      ],
      [
        "у",
        " па"
      ],
      [
        "на",
        "пры"
      ],
      [
        "ка",
        "я "
      ],
      [
        "ва",
        "с "
      ],
      [
        "ма",
        "юць "
      ],
      [
        "не",
        " па"
      ],
      [
        "рэ",
        "й"
      ],
      [
        "хо",
        "дна "
      ],
      [
        "час",
        "о"
      ],
      [
        "аў",
        "тама"
      ],
      [
        "некаторы",
        "я "
      ],
      [
        "неаб",
        "ходна "
      ],
      [
        "інтэр",
        "нэ"
      ],
      [
        "здо",
        "ль"
      ],
      [
        "аўтама",
        "бі"
      ],
      [
        "а",
        "та"
      ],
      [
        "ф",
        "ор"
      ],
      [
        "ц",
        " "
      ],
      [
        "на",
        "ле"
      ],
      [
        "ва",
        "нне "
      ],
      [
        "ны",
        "я"
      ],
      [
        "вы",
        "ра"
      ],
      [
        "кі",
        "м "
      ],
      [
        "чы",
        "цца "
      ],
      [
        "ста",
        "но"
      ],
      [
        "пра",
        "ў"
      ],
      [
        "маг",
        "лі "
      ],
      [
        "іншы",
        "я "
      ],
      [
        " пада",
        "рож"
      ],
      [
        "а",
        "ма"
      ],
      [
        "а",
        "по"
      ],
      [
        "д",
        "ада"
      ],
      [
        "ж",
        "ы "
      ],
      [
        "з",
        "ні"
      ],
      [
        "к",
        "лас"
      ],
      [
        "л",
        "ю "
      ],
      [
        "ч",
        "ным "
      ],
      [
        " п",
        "эў"
      ],
      [
        "ць ",
        "у"
      ],
      [
        "ць ",
        "на "
      ],
      [
        "ў ",
        "на"
      ],
      [
        "вы",
        "м "
      ],
      [
        "мі",
        "ж"
      ],
      [
        "во",
        "й"
      ],
      [
        "жы",
        "ць "
      ],
      [
        "по",
        "р"
      ],
      [
        "ння",
        "ў "
      ],
      [
        "роз",
        "ныя "
      ],
      [
        "кары",
        "ста"
      ],
      [
        "яко",
        "й "
      ],
      [
        "гад",
        "о"
      ],
      [
        "в",
        "у "
      ],
      [
        "м",
        "п"
      ],
      [
        "с",
        "ле"
      ],
      [
        "ч",
        "ны "
      ],
      [
        "ш",
        "та"
      ],
      [
        "э",
        "ле"
      ],
      [
        "я",
        "по"
      ],
      [
        "ў",
        "яўля"
      ],
      [
        "ў",
        "днё"
      ],
      [
        "ва",
        "т"
      ],
      [
        "ва",
        "е "
      ],
      [
        "ад",
        "роз"
      ],
      [
        "ты",
        "х "
      ],
      [
        "са",
        "ма"
      ],
      [
        "ны ",
        "і "
      ],
      [
        "ла",
        "гі"
      ],
      [
        "аб",
        "а"
      ],
      [
        "дзе",
        "й"
      ],
      [
        "су",
        "све"
      ],
      [
        "сі",
        "стэ"
      ],
      [
        "тра",
        "бава"
      ],
      [
        "чэ",
        "ння "
      ],
      [
        "адз",
        "і"
      ],
      [
        "фі",
        "на"
      ],
      [
        "наву",
        "ко"
      ],
      [
        "некаторы",
        "х "
      ],
      [
        "мале",
        "нь"
      ],
      [
        "с",
        "клада"
      ],
      [
        "у",
        "н"
      ],
      [
        "ч",
        "нага "
      ],
      [
        "э",
        "нер"
      ],
      [
        "ё",
        "сць "
      ],
      [
        "і ",
        "па"
      ],
      [
        "м ",
        "і "
      ],
      [
        "чы",
        "н"
      ],
      [
        "вя",
        "з"
      ],
      [
        "ска",
        "за"
      ],
      [
        "ска",
        "га "
      ],
      [
        "тра",
        "н"
      ],
      [
        "ця",
        "ж"
      ],
      [
        "це",
        "ся "
      ],
      [
        "месц",
        "ы "
      ],
      [
        "краі",
        "ны "
      ],
      [
        "атрыма",
        "ць "
      ],
      [
        "кампа",
        "ні"
      ],
      [
        "нягледзячы на ",
        "тое "
      ],
      [
        "разу",
        "ме"
      ],
      [
        "з",
        "ы"
      ],
      [
        "н",
        "у "
      ],
      [
        "п",
        " "
      ],
      [
        "п",
        "ад "
      ],
      [
        "с",
        "кі "
      ],
      [
        "с",
        "ла"
      ],
      [
        "ц",
        "ё"
      ],
      [
        "а ",
        "таксама "
      ],
      [
        "ра",
        "к"
      ],
      [
        "ра",
        "ё"
      ],
      [
        "я ",
        "і "
      ],
      [
        "ры",
        "х"
      ],
      [
        "ні",
        "к "
      ],
      [
        "не",
        "па"
      ],
      [
        "нн",
        "ы "
      ],
      [
        "ве",
        "ра"
      ],
      [
        "ін",
        "фарма"
      ],
      [
        " пра",
        "з "
      ],
      [
        "го",
        "д"
      ],
      [
        "жы",
        "ха"
      ],
      [
        "ся",
        "бе "
      ],
      [
        "раз",
        "ві"
      ],
      [
        "кты",
        "ў"
      ],
      [
        "выпад",
        "ку "
      ],
      [
        "колька",
        "сць "
      ],
      [
        "аргані",
        "за"
      ],
      [
        "рэгі",
        "ё"
      ],
      [
        "фіна",
        "нса"
      ],
      [
        "г",
        "рэ"
      ],
      [
        "е",
        "н"
      ],
      [
        "с",
        "ы"
      ],
      [
        "х",
        " па"
      ],
      [
        "э",
        "р"
      ],
      [
        "на",
        "кі"
      ],
      [
        "на",
        "род"
      ],
      [
        "та",
        "й "
      ],
      [
        "та",
        "гра"
      ],
      [
        "ры",
        "кан"
      ],
      [
        "ма",
        "га"
      ],
      [
        "да",
        "ў"
      ],
      [
        "кі ",
        "і "
      ],
      [
        " пра",
        "па"
      ],
      [
        "час",
        "та "
      ],
      [
        "ба",
        "чыць "
      ],
      [
        "ту",
        "т "
      ],
      [
        "го",
        "р"
      ],
      [
        "ло",
        "д"
      ],
      [
        "тры",
        "м"
      ],
      [
        "іс",
        "нуе "
      ],
      [
        "звычай",
        "на "
      ],
      [
        "напры",
        "клад "
      ],
      [
        "сусве",
        "т"
      ],
      [
        "а",
        "знача"
      ],
      [
        "д",
        "ва "
      ],
      [
        "е",
        "м"
      ],
      [
        "з",
        "мя"
      ],
      [
        "к",
        "ла"
      ],
      [
        "х",
        "ва"
      ],
      [
        "ч",
        "о"
      ],
      [
        "ра",
        "за"
      ],
      [
        "ра",
        "спа"
      ],
      [
        "на",
        "ві"
      ],
      [
        "ка",
        "мі"
      ],
      [
        "ва",
        "х "
      ],
      [
        "та",
        "лі"
      ],
      [
        "ад",
        "кры"
      ],
      [
        "на ",
        "по"
      ],
      [
        "чы",
        "нам "
      ],
      [
        "цы",
        "ю "
      ],
      [
        "мі",
        "ж "
      ],
      [
        "гі",
        "сто"
      ],
      [
        "чэ",
        "нне "
      ],
      [
        "ге",
        "н"
      ],
      [
        "цыя",
        "наль"
      ],
      [
        "рэд",
        "ка "
      ],
      [
        "ведам",
        "ле"
      ],
      [
        "зай",
        "ма"
      ],
      [
        "даво",
        "лі "
      ],
      [
        "ама",
        "ль "
      ],
      [
        "апо",
        "ш"
      ],
      [
        "д",
        "ста"
      ],
      [
        "ж",
        "о"
      ],
      [
        "з",
        " па"
      ],
      [
        "з",
        "во"
      ],
      [
        "с",
        "ё"
      ],
      [
        "с",
        "ць"
      ],
      [
        "т",
        "ру"
      ],
      [
        "ч",
        "ная "
      ],
      [
        "ра",
        "ў "
      ],
      [
        "ра",
        "м "
      ],
      [
        "у ",
        "на"
      ],
      [
        "у ",
        "выніку "
      ],
      [
        "ць ",
        "што "
      ],
      [
        "ў ",
        "на "
      ],
      [
        "на ",
        "з"
      ],
      [
        "вы",
        "со"
      ],
      [
        "ст",
        "ы "
      ],
      [
        "лі ",
        "ў "
      ],
      [
        "мо",
        "ц"
      ],
      [
        "мо",
        "вы "
      ],
      [
        "ста",
        "ра"
      ],
      [
        "аб",
        "о"
      ],
      [
        "хо",
        "дзя"
      ],
      [
        "тэ",
        "н"
      ],
      [
        "тэ",
        "рыя"
      ],
      [
        "дзе",
        "нь "
      ],
      [
        "пі",
        "са"
      ],
      [
        "це",
        "й "
      ],
      [
        "вер",
        "х"
      ],
      [
        "кара",
        "ле"
      ],
      [
        "большас",
        "ці "
      ],
      [
        "між",
        "народ"
      ],
      [
        "е",
        "з"
      ],
      [
        "к",
        "ле"
      ],
      [
        "п",
        "ра "
      ],
      [
        "ч",
        "ле"
      ],
      [
        "я",
        " п"
      ],
      [
        "і",
        "м"
      ],
      [
        "і ",
        "пра"
      ],
      [
        "на",
        "зі"
      ],
      [
        "ва",
        "я "
      ],
      [
        "ва",
        "га "
      ],
      [
        "ры",
        "я "
      ],
      [
        "м ",
        "з "
      ],
      [
        "ні",
        "ча"
      ],
      [
        "ме",
        "р "
      ],
      [
        "ст",
        "ва"
      ],
      [
        "са",
        "праў"
      ],
      [
        "чы",
        "на"
      ],
      [
        "ўс",
        "ё"
      ],
      [
        "ўс",
        "іх "
      ],
      [
        "пу",
        "ляр"
      ],
      [
        "дас",
        "ле"
      ],
      [
        "пя",
        "рэ"
      ],
      [
        "лан",
        "дыі "
      ],
      [
        "цт",
        "ва "
      ],
      [
        "супра",
        "ць "
      ],
      [
        "буду",
        "ць "
      ],
      [
        "назі",
        "ра"
      ],
      [
        "а",
        "ві"
      ],
      [
        "ж",
        "о "
      ],
      [
        "л",
        "у "
      ],
      [
        "н",
        "г "
      ],
      [
        "с",
        "у "
      ],
      [
        "с",
        "кую "
      ],
      [
        "т",
        "ку "
      ],
      [
        "ра",
        "ль"
      ],
      [
        " п",
        "рэ"
      ],
      [
        "ка",
        "мі "
      ],
      [
        "та",
        "кія "
      ]
    ]
  }
}